FDE2
FE5B
0000
FDCF
058F
0000
FDC4
0607
0000
10EA
0ABB
FD62
0000
0154
07AC
FDAF
0000
1693
1001
00CB
0000
0000
FCDE
FDE6
FFB9
0483
0000
0000
0000
141B
0F04
0000
FD36
FBFF
0000
FC6D
0459
0000
FB60
0498
0000
1400
11DF
FC8F
0000
FE17
0B73
FCDA
0000
199F
13A3
FDA4
0000
0000
FD70
FB4B
FCAE
065E
0000
0000
0000
16E7
17AD
0000
0112
0164
0000
0012
0323
0000
0317
02FC
0000
1131
0BB9
FFE6
0000
FDC4
082F
00AE
0000
1738
14D2
003D
0000
0000
0072
0069
01A3
0C28
0000
0000
0000
0ED3
114C
0000
FFD9
010F
0000
FFE9
0508
0000
02F8
06C5
0000
0A6E
FE6C
0073
0000
02FE
FD1C
01FF
0000
0E65
0C83
0391
0000
0000
01C9
0150
016B
0A49
0000
0000
0000
0A5B
0319
0000
FCBF
FEDE
0000
FECB
0494
0000
0057
06E5
0000
1246
0F87
FEB3
0000
FF89
0900
FD46
0000
181B
13D8
FF1D
0000
0000
FF87
FD2C
FF6C
093B
0000
0000
0000
1177
141E
0000
F85B
FAE1
0000
F912
0822
0000
F9D9
0903
0000
12A5
116C
FAB2
0000
011B
0D24
FB16
0000
19E8
111E
FF18
0000
0000
FB1B
F9B5
FCB0
03A4
0000
0000
0000
186D
164E
0000
F880
F87B
0000
F922
0AC8
0000
F783
0AA2
0000
1180
1172
F812
0000
022D
0B7C
F7A3
0000
195F
0DDA
FC62
0000
0000
F8D8
F8E8
F9E2
FFAF
0000
0000
0000
1943
1678
0000
FBD7
FBDC
0000
FB00
0B2D
0000
FD2C
0B33
0000
091B
06A0
FB92
0000
0600
050B
FB3C
0000
0F6F
080E
02B4
0000
0000
FBCD
FC0F
FD67
03C4
0000
0000
0000
1104
09CA
0000
F8F5
F988
0000
F83F
0D2C
0000
F8C3
0D16
0000
0AA5
0624
F71F
0000
079E
0330
F68B
0000
0FF3
05CE
FFB4
0000
0000
F80F
F5E4
FC8F
FEC2
0000
0000
0000
1798
09C3
0000
F7A1
F9BE
0000
F736
0DE7
0000
FA8A
0EBD
0000
01C2
FF4E
F9B3
0000
0945
FE14
F999
0000
0928
FD60
02D8
0000
0000
F83A
F980
FD6D
FD41
0000
0000
0000
13ED
00B9
0000
F76F
F955
0000
F927
0D80
0000
F9D5
0D82
0000
092C
04D4
F8D9
0000
0836
01D1
F9C9
0000
0F16
03D2
FF67
0000
0000
F82F
F8AE
FB4F
008C
0000
0000
0000
1718
0734
0000
FAD5
FAE8
0000
FB7E
095F
0000
0010
0B1E
0000
0B27
0D6E
FC46
0000
0544
0C72
FB69
0000
0EA7
0C23
0096
0000
0000
F9B7
FBDD
FC0D
0701
0000
0000
0000
0E92
0F0E
0000
FBCA
FC39
0000
FC7B
0B5C
0000
0289
0AFA
0000
0518
FDDB
FACB
0000
06E8
FFC0
FBE5
0000
0614
0744
050F
0000
0000
FC4E
FD84
0169
0822
0000
0000
0000
06A5
FF8C
0000
F75A
F8DA
0000
F9F8
0DB8
0000
FCDE
0ECE
0000
0249
F8A6
F848
0000
0B25
FC44
F82F
0000
04EB
FE87
0268
0000
0000
F9F2
F804
FBC3
FEA5
0000
0000
0000
0E7F
F9E0
0000
FA32
F97C
0000
F836
0E61
0000
FD98
0EEB
0000
FEAB
F7A6
F6C7
0000
0BFB
FA01
FA04
0000
022A
FD51
0288
0000
0000
F6D7
FB24
FCD3
FF42
FFFF
0000
0000
0D45
F8A3
0000
F39B
F5AB
0000
F625
0FC5
0000
F58C
1122
0000
1096
11EA
F4E1
0000
0752
08E3
F477
0000
17FB
076B
FD92
0000
0000
F4E9
F611
F83C
FB16
0000
0001
0000
2064
1530
0000
F755
FB5C
0000
F9CF
0E5A
0000
FED9
0E47
0000
FD6D
F47B
F6BA
0000
0CA2
F82E
F8D8
0000
FD08
FD2D
03E3
0000
0000
F892
FB0C
FE63
00C9
0001
0000
0000
0928
F4C9
0000
F63D
F82A
0000
F865
1025
0000
FC8F
0F59
0000
FDEE
F7AC
F91E
0000
0CAB
FCB6
F45B
0000
FDC7
FBF5
008E
0000
0000
F77E
F968
FC96
FD56
0001
FFFD
0000
0EDA
F84D
0000
F55B
F75E
0000
F90A
0FF3
0000
FB9E
0F83
0000
0307
0332
F789
0000
0B44
027A
F443
0000
03E3
030B
FFAC
0000
0000
F7F3
FA4A
FAB8
FDC9
FFFD
FFF1
0000
0F5F
0338
0000
F469
F4C4
0000
F55C
1151
0000
F63A
1064
0000
0652
04C3
F395
0000
0D6A
027D
F17B
0000
0AE8
FD22
FFF8
0000
0000
F4CB
F5D8
F769
F750
FFFF
FFFF
0000
1B73
04AF
0000
F248
F48A
0000
F494
10E1
0000
F383
1292
0000
1098
138E
F054
0000
0A37
0C1C
F0D1
0000
16DB
0840
FC36
0000
0000
F3F9
F32B
F6E8
F79B
FFFD
FFFE
0000
1F8B
13A5
0000
F0A8
F33B
0000
F38E
1302
0000
F2BE
1277
0000
03D1
0760
F132
0000
0C63
03E6
F132
0000
08CE
FC9A
FD9E
0000
0000
F321
F469
F695
F5B6
FFFB
FFFB
0000
1ED3
06D5
0000
F1E1
F4A5
0000
F253
1346
0000
F349
132F
0000
06EE
0580
F0D0
0000
0E9C
00AC
F212
0000
08CF
01F1
FDE4
0000
0000
F14A
F31B
F5AF
F7DA
0008
FFE7
0000
1848
06CA
0000
F1C0
F338
0000
F0A4
1370
0000
F14C
12D7
0000
04DD
0334
F21F
0000
0DEB
026F
F304
0000
0445
0054
FE77
0000
0000
ED83
F334
F763
F2CB
FFFD
FFDE
0000
19D2
0382
0000
F22B
F13A
0000
F1F6
1209
0000
F060
12A3
0000
FD97
F696
F192
0000
1161
F8A3
F10D
0000
F9E1
FAEE
FD8D
0000
0000
EEEE
F016
F59B
F13A
FFF4
0005
0000
1B98
F6FE
0000
EE88
F1C6
0000
EE8A
149A
0000
EBB1
14F3
0000
FDF4
FDE3
ED4D
0000
146D
FCDC
ED50
0000
FCA9
F96B
FC80
0000
0000
EE4A
EC7E
F250
ED0F
FFDD
FFF2
0000
227D
FD26
0000
EB32
ECF3
0000
EB70
17E6
0000
E85A
15DF
0000
07B5
09AE
EB4B
0000
166B
0429
ED58
0000
0A77
FA60
FACF
0000
0000
E965
E95A
F15D
EB85
FFEF
FFE3
0000
28F6
080C
0000
E552
E7CC
0000
E74C
1853
0000
E371
1AB2
0000
015B
01A7
EA78
0000
17E7
FD52
EA27
0000
0721
F3A0
F7CD
0000
0000
E606
E539
ED4D
E4BC
FFF0
FF81
0000
2E59
00FB
0000
E19D
E183
0000
E011
2211
0000
DAD9
2003
0000
FF73
FCAC
E085
0000
21A0
F8C1
E19B
0000
1897
E41C
F1BF
0000
0000
E0C8
DF09
E6EA
DF56
FFD4
FFB6
0000
3BA0
FD41
FFFF
D24D
D28B
0000
D4FC
29E8
0000
C92D
2A27
0000
0203
F676
D147
0000
2D65
ED06
D357
0000
49D2
C18E
E646
0000
0000
D06F
CF3F
D726
CE1F
FFE6
FFCC
0000
5476
F8EA
FFFA
CD6E
C963
0000
CA94
3324
0000
BFDC
3237
0000
09AA
00FE
CAFB
0000
35B0
F214
C9D2
0000
4E5A
B9C3
DA7C
0000
0000
C88E
C6AF
CA5C
C420
FF93
0091
0000
577A
029A
FFFC
DDA4
DD52
0000
DBCF
235B
0000
D54D
2446
0000
0786
03C3
DC76
0000
24A3
FEA4
DC06
0000
1B74
D911
ED74
0000
0000
D980
D910
E00F
D970
FFD2
FFF5
0000
3E1A
0277
FFFE
E503
E6E6
0000
E24D
1E06
0000
DF48
1F05
0000
01EE
01CE
E823
0000
1E86
FE23
E3C4
0000
0A5A
E91B
F746
0000
0000
E134
DF1A
EA71
DF81
0028
FF73
0001
2D3D
000F
FFE1
E923
EB60
0000
E6D5
1AE1
0000
E631
17B0
FFFF
04E2
0432
EB81
0000
1839
0089
EAA1
0000
07F5
F058
FC8E
0000
0000
E800
E7EE
F043
E665
FFD4
FF07
0000
2114
0348
FFF2
E98A
EDC4
0000
EB9E
17F2
0000
E7B6
16F5
FFFD
0280
0292
F056
0000
18C3
FF99
EC34
0000
0542
F3A8
FF36
0000
0000
E95F
E9EC
F3F5
E874
FFDE
0076
FFFF
1C74
00DF
FFE7
ECA4
F033
0000
EDE2
1641
0000
EAE0
17E8
FFFE
019E
FE87
F055
0000
17B2
0207
F0B5
0000
0469
F8EB
0165
0000
0000
EC94
EBA7
F6BB
EB38
FFFF
FFAC
FFFC
138C
FE32
0002
ED9D
F37F
0000
EE6A
1527
0000
EB39
1599
FFFD
09C1
06DD
F22F
0000
1337
0296
F0B4
0000
0B5D
FB42
01E1
0000
0000
F002
ED4C
F737
EC1F
0000
FF4A
FFFC
1052
0662
FFFC
EF5A
F582
0000
F09B
1448
0000
EE7F
15FB
FFD4
FC57
F766
F4D1
0000
15A8
FBA8
F3F8
0000
0213
FC32
0645
0000
0000
F0DC
EDB4
F9CC
EE0A
FFBE
FF2E
FFFC
0CD3
F754
FFBE
F0BF
F5F0
0000
EFA6
15DC
0000
EE00
1389
FFC5
010F
FCA2
F5ED
0000
14D2
FE40
F3DF
0000
05D6
FA05
04F1
0000
0000
F296
EE48
FB3B
EE20
001E
0085
FFFE
0973
FC7D
0029
F0E0
F9B5
0000
F2D6
148A
0000
F0FA
1438
0003
FCBD
F3C3
F824
0000
13E7
FC27
F91F
0000
00E0
FD40
07F8
0000
0000
F513
EF02
FE11
EDFB
FFE1
0046
0005
07DC
F384
FFD2
F048
F8ED
0000
EE88
13B3
0000
EEE4
1461
FFFF
0950
0917
FA08
0000
15F8
02CB
F812
0000
0BAB
00F9
0869
0000
0000
F4E2
EFC8
FEF5
F0D6
000C
FF0C
FFFC
06A2
0874
FFF6
F334
FB77
0000
F2A6
13B8
0000
F0EB
12E3
FF8F
0669
0492
FA04
0000
153F
0271
F8A9
0000
08C1
FED1
0908
0000
0000
F5F5
F143
FCBA
EF1C
0031
FF8B
0009
0612
05B5
0005
F62B
FABC
0000
F523
1244
0000
F2E5
1283
FFA2
0252
FD54
FBB3
0000
13FB
00DE
FA69
0000
04B4
FF2E
09C5
0000
0000
F84D
F529
00F1
F1FF
004D
FEEA
FFFB
06CD
FDD7
FF94
F806
FD42
0000
F6ED
10F3
0000
F33B
11B4
FFCD
01AE
FB49
FDFC
0000
1405
FE5C
FB60
0000
0703
006F
08E7
0000
0000
FB3A
F3B0
01B6
EFFD
FFE8
FF9F
FFF2
0672
FD04
0015
FA57
FFAB
0000
F5FF
1112
0000
F308
11D3
0086
0025
FD56
FF44
0000
123B
FF5D
FE69
0000
0395
012F
06BF
0000
0000
FABB
F5D5
0233
F1FC
FFD5
FF87
FFFD
056B
FE4B
003D
FB29
FF8A
0000
FB86
10FC
0000
F421
116D
FF5E
FA55
F6FA
FC6D
0000
1220
FE56
0017
0000
00CD
007C
0B43
0000
0000
FEDD
F792
0517
F575
0005
FD86
FFFC
04AB
F667
001B
FB30
0268
0000
FDE2
100E
0000
F800
10C2
0028
00A4
0133
FE84
0000
1058
01FD
FDDA
0000
04F5
0170
0BB3
0000
0000
FDB3
F983
0419
F10A
FFED
0080
FFFA
0522
01C0
FFB2
FDD9
0064
0000
FBA4
1046
0000
F8E7
110B
FF09
000F
0120
FED2
0000
148F
0080
FDAC
0000
0641
0391
0BD5
0000
0000
FF39
FA2F
0690
F382
0000
002A
FFF8
0535
02BE
FF9C
FEE6
040B
0000
FDF8
1008
0000
FA2D
11E2
FE39
F780
F956
027D
0000
12F8
FD20
0147
0000
FE35
0021
0C57
0000
0000
FFD0
FC6C
089B
F31C
000F
FE6B
0002
032F
F8D0
FF7B
FFA1
04D5
0000
015C
0F79
0000
FBDE
0DB9
FFE6
FA84
042B
032E
0000
12A4
02E5
0299
0000
FF07
0180
0C5E
0000
0000
FE5B
FEC4
07BC
F598
FFD9
00C9
FFFB
FF10
0518
0000
0203
05B5
0000
FF8D
1054
0000
FD2A
11B4
FF90
F73A
FD33
0366
0000
104E
002D
0450
0000
FF25
0041
0C45
0000
0000
0246
FE4B
093E
F32A
FFE4
FEB7
FFF6
FFD4
FCAD
FFFB
0295
05C2
0000
0467
1087
0000
FE8E
0F46
FFA1
F664
FAC8
030F
0000
11E5
FE5C
0716
0000
FC70
0028
0E77
0000
0000
00FC
FFF4
089B
F79A
FFB1
FF97
FFFB
FEAE
F982
FFC9
0282
0580
0000
00BE
0CB0
0000
FDFE
10BB
FF20
F7EF
0282
0498
0000
12FF
01D7
030A
0000
FECE
FFE3
0B7C
0000
0000
036B
01A6
0925
F690
FFEF
FF74
FFFD
FCCC
0462
FFA9
0258
070E
0000
0117
0EBF
0000
01F7
0F18
0027
F557
0052
05BB
0000
1101
FFA4
05DF
0000
FDB4
00A4
0B5E
0000
0000
045B
002F
0AB1
F88C
0040
FEE3
0007
FD2B
0147
FFE4
0621
0529
0000
02AB
0EE9
0000
036D
0F88
FF80
F6A1
072D
08E0
0000
0F54
0429
04C0
0000
FF75
0082
0CA4
0000
0000
036D
051D
0A9A
F8AA
FFF4
FF64
FFFD
F8C0
0A7F
FF7D
083F
0A31
0000
0480
0DEE
0000
04ED
0F4B
FF2D
EF26
FA14
088C
0000
129B
FE87
08D2
0000
F8B5
00C3
0DC3
0000
0000
0734
059C
0B01
FE0F
003D
FFD3
FFFA
F83A
FAD9
FF78
0970
09CA
0000
0550
0DB0
0000
064D
0EB2
0030
EF20
FCEA
07F2
0000
114A
FE50
09F5
0000
F89A
0099
0C45
0000
0000
07DB
0716
0BB8
FA30
FFBC
0024
FFFC
F6FB
FB28
0057
04A1
08A4
0000
04DA
0C9F
0000
0678
0D91
FE7F
EF47
02FA
0793
0000
0F5B
025C
0A54
0000
F8BA
FD53
0A81
0000
0000
07D8
06DF
0A5D
FDD0
FFBA
FEFA
FFFB
F3B2
04AB
FF92
078A
08ED
0000
096A
0DBD
0000
0867
0C56
012B
EC2C
FEE5
0715
0000
10DF
0060
09AF
0000
F658
FDAD
0BC9
0000
0000
08B5
090C
0CAC
001D
FFF1
FF41
FFFE
F348
FFA8
006F
0853
0B45
0000
0AB8
0C51
0000
09F4
0E2A
0023
F017
0217
0A39
0000
0F91
016D
086D
0000
F653
FF0A
0E03
0000
0000
0A72
09AD
0B94
037E
000E
0006
FFF3
F2CD
0415
FF3F
088A
0AA6
0000
0881
0A9D
0000
0B47
0D11
FFF1
ED2F
01BC
08C3
0000
11AC
00C7
0A23
0000
F3B7
FE60
0F58
0000
0000
0ADC
0996
0D6C
0376
FFE7
FF2B
FFF3
F143
0243
000D
095A
0BAF
0000
091D
0BAC
0000
0BCB
0ACA
FD77
E8D8
FFE1
08EA
0000
113A
FFC6
0B57
0000
F15B
FDE8
0CC9
0000
0000
0BA9
0A7B
0C33
01E0
FF90
0028
FFF4
EF58
0065
FFDE
0A03
0C7D
0000
0AE5
0AB5
0000
0D59
0C7E
FF20
E994
08B7
09C0
0000
1192
05AC
0D10
0000
F26B
F947
0E6A
0000
0000
0B9C
0F4E
0E29
08C1
FFDD
FF6D
FFFB
EEB7
0F9C
008D
0CB1
0D21
0000
0C49
098B
0000
0F49
0C27
FFAF
E6CE
03EB
0D44
0000
100D
02E6
0F85
0000
EDA6
F5F3
10C0
0000
0000
0B21
0D5D
0E71
0812
FFE7
FEBF
FFFC
E8BC
0689
FF64
0DE2
0E0C
0000
0E15
0873
0000
11A6
0AD6
FE31
E58D
FFB3
0D21
0000
1458
0104
109E
0000
E920
F704
0FD8
0000
0000
0F36
1145
1039
07DB
FFF0
0022
FFFB
E75A
0059
FFD5
0DE1
0FD9
0000
0DDC
0892
0000
13E2
0A3A
004C
E10B
FA2E
0E8B
0000
13CD
FD01
0EB2
0000
E299
F05A
0EA6
0000
0000
0D66
113F
107A
0A4C
FFF8
FF79
FFFD
E680
F482
FEE9
0F9B
114D
0000
104C
087C
FFFF
166E
0ADB
FF23
DCC7
F8DE
0ECE
0000
12B7
FD51
10DE
0000
E00C
EA24
13C4
0000
0000
12AA
1494
111E
0B87
002C
FCEE
FFFB
E159
F1CE
FFF5
12F7
14B2
0000
1282
076D
0000
19DF
0A73
FFDD
D822
F8E8
0E89
0000
157A
FE1D
17C2
0000
D98C
E7A7
139A
0000
0000
1308
145A
1522
0DE1
FFD7
FFF9
FFFA
DE30
ED20
0048
1874
1A97
0000
1A3F
0735
FFFF
21F1
08F9
FF40
CEBE
DED6
1651
0000
1B71
F12D
1B20
0000
CA80
D8DF
1892
0000
0000
17E5
1BCE
1CA8
1238
000C
FFAE
FFFC
D544
BF23
006D
23A5
25F2
0000
2468
0747
FFFF
31B9
0B43
FF95
BB8F
AB18
214B
0000
25E9
CD47
26BA
0000
B6BE
C3E0
2351
0000
0000
246A
2A49
28E4
1C5D
FFF1
FE45
FFFB
C37E
951C
FF16
1D7D
212E
0000
1D8D
065D
FFE5
2B62
0A49
0019
C166
DC55
1CAE
0000
1E92
F085
1E90
0000
C2D9
D2AC
1CA2
0000
0000
1E04
22AA
2169
179E
FFCF
FFE5
FFF9
CB2F
C4A7
FE51
14DF
1943
0000
146E
0481
FFF7
1F0A
0818
0024
D340
F19B
1565
0000
18D3
FB0A
1481
0000
D5BA
E7E6
1645
0000
0000
175E
1B20
19EB
133A
FFD4
FF15
FFF0
DBC6
EA1B
FEE8
118D
144F
0000
12D5
043C
FFFE
1941
07A2
FFFF
E016
FCB6
104F
0000
14D8
FD68
121A
0000
DF4C
F250
1290
0000
0000
1149
15A8
12F2
115A
FFFE
FE64
FFF7
E0AC
F509
FF5D
10D3
0E98
0000
0E4D
02D5
0004
1689
078E
FE92
EB12
FE55
10B2
0000
1122
FDFD
0E51
0000
E401
F93A
0EFE
0000
0000
0F07
120D
1070
10AF
0005
FD9A
FFF8
E506
FBE7
0084
0FBC
0DF8
0000
0CD3
023D
0002
14CC
027D
FD7E
F49D
00B3
0EC5
0000
13C3
FF24
0C4A
0000
ED48
FE83
0C87
0000
0000
0C9D
0FE9
0EED
0F57
FFEF
00C7
FFFB
ECF3
FD02
000B
0DAE
0E34
0000
0C58
033B
FFFD
12CA
03F2
FE3F
F7D8
009B
0B53
0000
10EB
FD7C
1006
0000
F07D
0017
10AB
0000
0000
0BE9
0F33
1217
0E76
FFBC
FFBD
FFFC
F141
FC88
FF87
0CDB
0C27
0000
0CAD
035B
FFFB
1062
028D
FF2C
0185
00BA
08D4
0000
0C9A
FED0
0AD1
0000
F9C8
06B3
0CB0
0000
0000
0E04
0D01
0EA7
10E9
FFD8
0117
FFF5
F830
FE4F
FF0A
0B1F
0A19
0000
0B1E
0193
0002
0F36
0307
0090
04BD
0227
0A04
0000
0BA9
FFC3
0C16
0000
FF5E
08EE
0ADC
0000
0000
0ACF
0E2C
0C21
105B
000F
0060
FFFF
FD3C
0236
0070
0A2D
08E1
0000
0A75
0212
0002
0E9A
033A
FE73
096A
0047
0A44
0000
0CAF
FF1B
084C
0000
023F
086B
0A9D
0000
0000
0B57
0C43
0AF3
0F8E
FFF3
FEDF
FFFF
0675
021A
FFC7
0B49
0B0B
0000
0AC2
025F
0000
0D53
03CE
0105
0BBC
FF25
092D
0000
0990
FE76
07AC
0000
049D
0BBC
0A87
0000
0000
09D0
0BE1
09F2
0EEB
FFFB
FFD1
0000
0610
FF64
000A
0A9D
08C1
0000
0A8D
0217
0000
0C91
0243
FFE6
0C5F
023B
0808
0000
0855
FF01
0AA4
0000
063C
0DDF
07BF
0000
0000
09FC
0A9E
09AB
0EA6
FFFD
003F
0000
07B7
FF95
FF89
0911
05F0
0000
09A5
019D
FFFF
0B1B
01C8
FF91
1045
0067
0867
0000
06BB
FEE1
083B
0000
0831
10D3
0818
0000
0000
0604
0B1E
06ED
0D8E
001D
FFEF
FFFF
0978
022D
FF71
09D6
05A2
0000
09F0
00F8
0000
0AAA
00E8
FF8C
1063
FF9E
05CE
0000
060C
FECF
070D
0000
0B77
0E86
06CA
0000
0000
0712
0BAE
0684
1009
0011
FF91
FFFF
0C8B
0127
FF6A
0811
0831
0000
0869
02C8
FFFF
0AC9
00C8
FFA9
1053
03A0
0644
0000
0406
FFF5
069B
0000
0D34
0E59
05FD
0000
0000
0960
09AC
065E
0E2A
FFD5
FF16
0000
0EBC
01BC
0032
06D6
060E
0000
0BAB
002D
FFFF
090E
0199
01BE
1229
0427
071B
0000
031D
FEF5
0529
0000
0B7B
10B5
069C
0000
0000
0570
0A52
0626
0FF8
000D
FF02
0000
0CF0
027F
FFA2
0541
052F
0000
0603
0172
FFFF
0861
01BD
FFE5
11A4
00A1
0527
0000
0357
FF1E
034D
0000
0CFA
111C
040A
0000
FFFF
05C1
06AA
05CC
0FBC
FFD0
009C
0000
0D9F
027A
0013
03B5
0687
0000
0904
0197
FFFF
0890
0140
FF95
137F
016B
048D
0000
04DF
FEC8
0591
0000
0F6F
1235
03CA
0000
0001
07A2
0665
03B0
0F23
FF7B
0090
0000
1015
02A6
0049
0A33
04C2
0000
05E9
018A
FFFF
0811
0240
FF2E
1557
0138
06F5
0000
023D
FF39
052D
0000
0FEB
118D
023E
0000
FFFF
0715
082F
04D5
0D19
0004
FE79
0000
1188
03A8
FF78
03E3
045C
0000
0498
00C9
0001
074D
01C1
FEE2
14DF
01F6
0414
0000
01A4
FF09
037F
0000
1106
15A7
01B6
0000
FFFC
05CC
05BD
033F
0FE9
FFFB
FF1A
FFFF
0F16
0331
FFA4
05B9
001A
0000
063A
01DF
FFFF
05C4
0130
FFBB
161F
0213
0372
0000
02EB
FFD5
0270
0000
1424
1557
03EE
0000
FFF8
04C4
066F
0221
0DF8
0014
FF22
FFFF
149E
05D6
FFD9
0506
02D5
0000
05F1
0037
FFFF
0544
FEAC
FE9C
18D0
0384
018D
0000
0232
0105
0282
0000
14CC
15D6
00B8
0000
FFFD
0593
03C3
0035
0ED0
FFE7
FFCB
FFFF
14E9
08FB
FFF5
06AA
025D
0000
062A
00D8
FFFE
0458
00D9
FF49
184D
0243
0399
0000
FFE9
FF1C
01CF
0000
12E7
15E3
01F7
0000
0009
0401
05C6
0117
0BB1
FFAB
FED7
FFFF
156C
0567
0005
04B5
FF33
0000
0597
FF7C
0000
0473
0010
FF68
1929
037F
FF88
0000
FDED
0045
0506
0000
1581
18CF
02E0
0000
FFFF
040F
0363
FFFC
0C98
FFE9
FFA6
0000
15CF
0949
FF49
03EB
00D8
0000
04F5
FF04
0000
02FC
FF0C
FEA7
19E8
02C5
0227
0000
0065
0080
0391
0000
18B4
1B12
FFD5
0000
FFF7
0384
047B
00B8
0FB6
FFD0
0041
0000
16A0
0A5A
FF76
0357
FF8D
0000
029C
FFC8
FFFF
027B
00EC
FEE6
1AA4
04BD
011E
0000
FE6F
0126
0100
0000
1952
1CA1
FE8C
0000
FFF2
01E6
0435
00C2
1095
FFF5
FEA8
FFFE
17F5
0C6B
0027
0473
0137
0000
0471
FF44
FFFF
011E
FE82
FFF8
193E
0401
014E
0000
0145
0144
FFCE
0000
1AA7
1BF0
FEB3
0000
FFEF
00F9
021B
FFE5
0F84
FFBA
FFB3
0000
1ACD
0C99
0033
047D
00AA
0000
0491
FF15
0000
0279
FCD4
FF3C
1DA3
07D2
02E4
0000
0121
03C1
0222
0000
1B1D
1A46
FFBC
0000
FFF4
01F4
03AB
01EB
0D9F
0014
FEF9
0000
16E6
117F
0008
0330
FFE3
0000
0263
FE24
0001
0129
FE4B
FFDB
1CF2
0AD4
007A
0000
FBFC
04E9
020A
0000
21EF
1D44
FFC3
0000
FFF5
0085
03E6
FE1A
1062
FFBE
0075
FFFF
192E
13BC
000D
FFA9
02A6
0000
00BE
FAB2
FFFF
00BD
FC0D
00D4
1DF4
0C3E
011B
0000
FC7F
0961
FFAF
0000
2072
1EA5
00F4
0000
000F
020A
02A1
00D7
1065
000C
FFE0
0000
19E7
1657
000F
0001
FF16
0000
025E
FC05
FFFF
019B
FCDE
FF8D
202E
14AF
00BA
0000
FBD4
0F35
000C
0000
254A
2280
FEB3
0000
FFF6
027B
01D2
FFAB
11A4
FFDF
FEED
0000
1A5E
2043
FFAB
