E676
1800
F186
EE0D
153B
EEA3
0000
0000
0000
E46E
1867
F098
1B2F
E47C
E0C0
FFEB
FFF4
0000
DEEA
23FE
E575
1BAD
E732
E0C7
FEFB
FE30
003E
E12B
DAF6
238D
CC1E
CCE0
50BD
E930
154B
EE46
0000
0000
0000
14D7
0099
E65C
CF1E
D78E
3F94
EBDB
148D
F060
0000
0000
0000
EBC6
C7D4
3081
C947
F7F2
29C7
03DA
11D3
EA95
0000
0000
0000
0000
FFFE
FFF0
E52B
1651
EEC5
E3D9
1950
EC93
F6EC
15BF
ECA3
E0BF
1CB1
03CB
FFFF
0055
0017
FE8C
FFA8
00C8
0017
0000
0009
24A6
CF39
2663
C529
C44E
4EE3
FF0B
FFFB
003E
